TRT-8602-EntropyCalibration2
images: 3bf80000
/model.0/conv/Conv_output_0: 3e14ecc7
/model.0/act/Sigmoid_output_0: 3c010a14
/model.0/act/Mul_output_0: 3d65816a
/model.1/conv/Conv_output_0: 3f14b33a
/model.1/act/Sigmoid_output_0: 3c010a14
/model.1/act/Mul_output_0: 3e9a93cc
/model.2/cv1/conv/Conv_output_0: 3e6b8d2c
/model.2/cv1/act/Sigmoid_output_0: 3c00e9d4
/model.2/cv1/act/Mul_output_0: 3d9103ff
/model.2/Split_output_0: 3dc4060d
/model.2/Split_output_1: 3d46a683
/model.2/m.0/cv1/conv/Conv_output_0: 3e07a252
/model.2/m.0/cv1/act/Sigmoid_output_0: 3c010a14
/model.2/m.0/cv1/act/Mul_output_0: 3d8d2bcb
/model.2/m.0/cv2/conv/Conv_output_0: 3db4e797
/model.2/m.0/cv2/act/Sigmoid_output_0: 3c010a14
/model.2/m.0/cv2/act/Mul_output_0: 3d69ad91
/model.2/m.0/Add_output_0: 3d9e9775
/model.2/Concat_output_0: 3dc5bfa1
/model.2/cv2/conv/Conv_output_0: 3db31ccc
/model.2/cv2/act/Sigmoid_output_0: 3c010a14
/model.2/cv2/act/Mul_output_0: 3d6432b3
/model.3/conv/Conv_output_0: 3d6ee0de
/model.3/act/Sigmoid_output_0: 3c00e2c4
/model.3/act/Mul_output_0: 3d3f82f5
/model.4/cv1/conv/Conv_output_0: 3d67a724
/model.4/cv1/act/Sigmoid_output_0: 3c00d0cb
/model.4/cv1/act/Mul_output_0: 3cff1f3c
/model.4/Split_output_0: 3ce4e5cf
/model.4/Split_output_1: 3cb20aac
/model.4/m.0/cv1/conv/Conv_output_0: 3d25b3c4
/model.4/m.0/cv1/act/Sigmoid_output_0: 3bfe21e8
/model.4/m.0/cv1/act/Mul_output_0: 3ce6571b
/model.4/m.0/cv2/conv/Conv_output_0: 3d2c4429
/model.4/m.0/cv2/act/Sigmoid_output_0: 3bf6541c
/model.4/m.0/cv2/act/Mul_output_0: 3ca416cc
/model.4/m.0/Add_output_0: 3cfc1d57
/model.4/m.1/cv1/conv/Conv_output_0: 3d3353fd
/model.4/m.1/cv1/act/Sigmoid_output_0: 3bfd7573
/model.4/m.1/cv1/act/Mul_output_0: 3cb1ad71
/model.4/m.1/cv2/conv/Conv_output_0: 3d427eb8
/model.4/m.1/cv2/act/Sigmoid_output_0: 3c00ddb1
/model.4/m.1/cv2/act/Mul_output_0: 3d248551
/model.4/m.1/Add_output_0: 3d5f0675
/model.4/Concat_output_0: 3d67af00
/model.4/cv2/conv/Conv_output_0: 3d3ca696
/model.4/cv2/act/Sigmoid_output_0: 3c00bf31
/model.4/cv2/act/Mul_output_0: 3cd12bac
/model.5/cv1/conv/Conv_output_0: 3d8c7a89
/model.5/cv1/act/Sigmoid_output_0: 3c010958
/model.5/cv1/act/Mul_output_0: 3cd3ea1b
/model.5/cv2/conv/Conv_output_0: 3dbcb078
/model.6/cv1/conv/Conv_output_0: 3d3e7c9d
/model.6/cv1/act/Sigmoid_output_0: 3c00b81c
/model.6/cv1/act/Mul_output_0: 3cffb0b9
/model.6/Split_output_0: 3cffb0b9
/model.6/Split_output_1: 3c993cd5
/model.6/m.0/cv1/conv/Conv_output_0: 3d579a3d
/model.6/m.0/cv1/act/Sigmoid_output_0: 3c00c836
/model.6/m.0/cv1/act/Mul_output_0: 3cb176ec
/model.6/m.0/cv2/conv/Conv_output_0: 3d1c0005
/model.6/m.0/cv2/act/Sigmoid_output_0: 3bf75228
/model.6/m.0/cv2/act/Mul_output_0: 3c8fdfeb
/model.6/m.0/Add_output_0: 3d0f10c7
/model.6/m.1/cv1/conv/Conv_output_0: 3d377139
/model.6/m.1/cv1/act/Sigmoid_output_0: 3bffb919
/model.6/m.1/cv1/act/Mul_output_0: 3c2a1fa3
/model.6/m.1/cv2/conv/Conv_output_0: 3d8c0815
/model.6/m.1/cv2/act/Sigmoid_output_0: 3c0108ea
/model.6/m.1/cv2/act/Mul_output_0: 3cff6a93
/model.6/m.1/Add_output_0: 3d736ff7
/model.6/Concat_output_0: 3d0ef01b
/model.6/cv2/conv/Conv_output_0: 3d3f8f6c
/model.6/cv2/act/Sigmoid_output_0: 3c00252a
/model.6/cv2/act/Mul_output_0: 3cd10ccf
/model.7/cv1/conv/Conv_output_0: 3d4e39e0
/model.7/cv1/act/Sigmoid_output_0: 3c00b470
/model.7/cv1/act/Mul_output_0: 3cb2ac18
/model.7/cv2/conv/Conv_output_0: 3d910ed3
/model.8/cv1/conv/Conv_output_0: 3d4f8a5b
/model.8/cv1/act/Sigmoid_output_0: 3c00c099
/model.8/cv1/act/Mul_output_0: 3d004b27
/model.8/Split_output_0: 3d250370
/model.8/Split_output_1: 3c90a623
/model.8/m.0/cv1/conv/Conv_output_0: 3d37512a
/model.8/m.0/cv1/act/Sigmoid_output_0: 3bff63b7
/model.8/m.0/cv1/act/Mul_output_0: 3cc084d6
/model.8/m.0/cv2/conv/Conv_output_0: 3d77e8a0
/model.8/m.0/cv2/act/Sigmoid_output_0: 3c00d66c
/model.8/m.0/cv2/act/Mul_output_0: 3d244f4d
/model.8/m.0/Add_output_0: 3d3fd35a
/model.8/Concat_output_0: 3d2438f8
/model.8/cv2/conv/Conv_output_0: 3d547559
/model.8/cv2/act/Sigmoid_output_0: 3c009658
/model.8/cv2/act/Mul_output_0: 3ce71b1e
/model.9/cv1/conv/Conv_output_0: 3d50e9a9
/model.9/cv1/act/Sigmoid_output_0: 3c00b9e8
/model.9/cv1/act/Mul_output_0: 3d404628
/model.9/m/MaxPool_output_0: 3d404628
/model.9/m_1/MaxPool_output_0: 3d404628
/model.9/m_2/MaxPool_output_0: 3d404628
/model.9/Concat_output_0: 3d52756b
/model.9/cv2/conv/Conv_output_0: 3d4f352a
/model.9/cv2/act/Sigmoid_output_0: 3bff6a6c
/model.9/cv2/act/Mul_output_0: 3ca43cb8
/model.10/cv1/conv/Conv_output_0: 3d32ec16
/model.10/cv1/act/Sigmoid_output_0: 3c0089ac
/model.10/cv1/act/Mul_output_0: 3d004965
/model.10/Split_output_0: 3cd273bb
/model.10/Split_output_1: 3d00331f
/model.10/attn/qkv/conv/Conv_output_0: 3d13bc8b
/model.10/attn/Reshape_output_0: 3d13bc8b
/model.10/attn/Split_output_0: 3d080afd
/model.10/attn/Split_output_1: 3d09efe5
/model.10/attn/Split_output_2: 3d15f2fd
/model.10/attn/Transpose_output_0: 3d080afd
/model.10/attn/Reshape_2_output_0: 3d15f2fd
/model.10/attn/MatMul_output_0: 3f16b136
/model.10/attn/pe/conv/Conv_output_0: 3d06334a
(Unnamed Layer* 188) [Shuffle]_output: 3ab67d3d
/model.10/attn/Mul_1_output_0: 3dd51c6b
(Unnamed Layer* 190) [Softmax]_output: 3a204e60
/model.10/attn/Transpose_1_output_0: 3a204e60
/model.10/attn/MatMul_1_output_0: 3d0144ee
/model.10/attn/Reshape_1_output_0: 3d0144ee
/model.10/attn/Add_output_0: 3cb76546
/model.10/attn/proj/conv/Conv_output_0: 3cb04991
/model.10/Add_output_0: 3d430d7d
/model.10/ffn/ffn.0/conv/Conv_output_0: 3d1445bd
/model.10/ffn/ffn.0/act/Sigmoid_output_0: 3bfba5ed
/model.10/ffn/ffn.0/act/Mul_output_0: 3c9993e0
/model.10/ffn/ffn.1/conv/Conv_output_0: 3cae34ec
/model.10/Add_1_output_0: 3d329cdc
/model.10/Concat_output_0: 3d009fc2
/model.10/cv2/conv/Conv_output_0: 3d0e2d73
/model.10/cv2/act/Sigmoid_output_0: 3c002f83
/model.10/cv2/act/Mul_output_0: 3c66a6cb
/model.11/Resize_output_0: 3c66a6cb
/model.12/Concat_output_0: 3c9985c1
/model.13/cv1/conv/Conv_output_0: 3d26ddb9
/model.13/cv1/act/Sigmoid_output_0: 3bfb5b62
/model.13/cv1/act/Mul_output_0: 3c73676b
/model.13/Split_output_0: 3c90348a
/model.13/Split_output_1: 3c73676b
/model.13/m.0/cv1/conv/Conv_output_0: 3d21ed94
/model.13/m.0/cv1/act/Sigmoid_output_0: 3bf66cf1
/model.13/m.0/cv1/act/Mul_output_0: 3c403a68
/model.13/m.0/cv2/conv/Conv_output_0: 3cf2f84b
/model.13/m.0/cv2/act/Sigmoid_output_0: 3bfd5661
/model.13/m.0/cv2/act/Mul_output_0: 3c90757b
/model.13/Concat_output_0: 3c90757b
/model.13/cv2/conv/Conv_output_0: 3d0e8bd6
/model.13/cv2/act/Sigmoid_output_0: 3c0098fb
/model.13/cv2/act/Mul_output_0: 3c87436f
/model.14/Resize_output_0: 3c87436f
/model.15/Concat_output_0: 3cc0449a
/model.16/cv1/conv/Conv_output_0: 3d240ecc
/model.16/cv1/act/Sigmoid_output_0: 3bf94ec5
/model.16/cv1/act/Mul_output_0: 3c8fd674
/model.16/Split_output_0: 3c5bbe09
/model.16/Split_output_1: 3c9946aa
/model.16/m.0/cv1/conv/Conv_output_0: 3d043ee2
/model.16/m.0/cv1/act/Sigmoid_output_0: 3bf5b478
/model.16/m.0/cv1/act/Mul_output_0: 3c72195b
/model.16/m.0/cv2/conv/Conv_output_0: 3d0b7203
/model.16/m.0/cv2/act/Sigmoid_output_0: 3bfebf8a
/model.16/m.0/cv2/act/Mul_output_0: 3cc049b2
/model.16/Concat_output_0: 3c99fba3
/model.16/cv2/conv/Conv_output_0: 3d31f892
/model.16/cv2/act/Sigmoid_output_0: 3c0085cf
/model.16/cv2/act/Mul_output_0: 3c8f8b76
/model.17/conv/Conv_output_0: 3d251794
/model.23/one2one_cv2.0/one2one_cv2.0.0/conv/Conv_output_0: 3da1b24b
/model.23/one2one_cv3.0/one2one_cv3.0.0/one2one_cv3.0.0.0/conv/Conv_output_0: 3d2058fd
/model.17/act/Sigmoid_output_0: 3bff784d
/model.23/one2one_cv2.0/one2one_cv2.0.0/act/Sigmoid_output_0: 3c010a14
/model.23/one2one_cv3.0/one2one_cv3.0.0/one2one_cv3.0.0.0/act/Sigmoid_output_0: 3c0109ca
/model.17/act/Mul_output_0: 3ca48745
/model.23/one2one_cv2.0/one2one_cv2.0.0/act/Mul_output_0: 3c83508c
/model.23/one2one_cv3.0/one2one_cv3.0.0/one2one_cv3.0.0.0/act/Mul_output_0: 3d21a134
/model.18/Concat_output_0: 3c8fe1f6
/model.23/one2one_cv2.0/one2one_cv2.0.1/conv/Conv_output_0: 3e204cf8
/model.23/one2one_cv3.0/one2one_cv3.0.0/one2one_cv3.0.0.1/conv/Conv_output_0: 3d4f0bdb
/model.19/cv1/conv/Conv_output_0: 3d2e0987
/model.23/one2one_cv2.0/one2one_cv2.0.1/act/Sigmoid_output_0: 3c010a14
/model.23/one2one_cv3.0/one2one_cv3.0.0/one2one_cv3.0.0.1/act/Sigmoid_output_0: 3c00f694
/model.19/cv1/act/Sigmoid_output_0: 3c010491
/model.23/one2one_cv2.0/one2one_cv2.0.1/act/Mul_output_0: 3dc2e014
/model.23/one2one_cv3.0/one2one_cv3.0.0/one2one_cv3.0.0.1/act/Mul_output_0: 3ce66237
/model.19/cv1/act/Mul_output_0: 3ca4e850
/model.23/one2one_cv2.0/one2one_cv2.0.2/Conv_output_0: 3db16d14
/model.23/one2one_cv3.0/one2one_cv3.0.1/one2one_cv3.0.1.0/conv/Conv_output_0: 3d8439e2
/model.19/Split_output_0: 3ca4a23e
/model.19/Split_output_1: 3ca3f306
/model.23/one2one_cv3.0/one2one_cv3.0.1/one2one_cv3.0.1.0/act/Sigmoid_output_0: 3c010a14
/model.19/m.0/cv1/conv/Conv_output_0: 3d083586
/model.23/one2one_cv3.0/one2one_cv3.0.1/one2one_cv3.0.1.0/act/Mul_output_0: 3d62cc8a
/model.19/m.0/cv1/act/Sigmoid_output_0: 3bf4ef56
/model.23/one2one_cv3.0/one2one_cv3.0.1/one2one_cv3.0.1.1/conv/Conv_output_0: 3dc28920
/model.19/m.0/cv1/act/Mul_output_0: 3c38be98
/model.23/one2one_cv3.0/one2one_cv3.0.1/one2one_cv3.0.1.1/act/Sigmoid_output_0: 3c010a14
/model.19/m.0/cv2/conv/Conv_output_0: 3d4d60c1
/model.23/one2one_cv3.0/one2one_cv3.0.1/one2one_cv3.0.1.1/act/Mul_output_0: 3dc21e51
/model.19/m.0/cv2/act/Sigmoid_output_0: 3c00f030
/model.23/one2one_cv3.0/one2one_cv3.0.2/Conv_output_0: 3e99f79c
/model.19/m.0/cv2/act/Mul_output_0: 3d012dd3
/model.23/Concat_output_0: 3e4998f9
/model.19/Concat_output_0: 3ce698c5
/model.19/cv2/conv/Conv_output_0: 3d6e1134
/model.19/cv2/act/Sigmoid_output_0: 3c010446
/model.19/cv2/act/Mul_output_0: 3ce585a2
/model.23/Range_output_0: 3f1f4871
(Unnamed Layer* 330) [Shuffle]_output: 3c010a14
/model.23/Range_1_output_0: 3f1f4871
(Unnamed Layer* 341) [Shuffle]_output: 3c010a14
/model.20/cv1/conv/Conv_output_0: 3d30dc76
/model.23/one2one_cv2.1/one2one_cv2.1.0/conv/Conv_output_0: 3dee5a3c
/model.23/one2one_cv3.1/one2one_cv3.1.0/one2one_cv3.1.0.0/conv/Conv_output_0: 3d888735
/model.23/Reshape_output_0: 3e4998f9
(Unnamed Layer* 348) [Shuffle]_output: 3b810a14
/model.23/Add_output_0: 3f204a85
(Unnamed Layer* 351) [Shuffle]_output: 3b810a14
/model.23/Add_1_output_0: 3f204a85
/model.20/cv1/act/Sigmoid_output_0: 3c000f7c
/model.23/one2one_cv2.1/one2one_cv2.1.0/act/Sigmoid_output_0: 3c010a14
/model.23/one2one_cv3.1/one2one_cv3.1.0/one2one_cv3.1.0.0/act/Sigmoid_output_0: 3c00f7d2
(Unnamed Layer* 358) [Constant]_output: 0
(Unnamed Layer* 359) [Shuffle]_output: 0
/model.23/ConstantOfShape_output_0: 0
/model.23/Reshape_5_output_0: 3f204a85
/model.23/Reshape_6_output_0: 3f204a85
/model.20/cv1/act/Mul_output_0: 3ce63213
/model.23/one2one_cv2.1/one2one_cv2.1.0/act/Mul_output_0: 3d13955e
/model.23/one2one_cv3.1/one2one_cv3.1.0/one2one_cv3.1.0.0/act/Mul_output_0: 3d679e74
(Unnamed Layer* 369) [Shuffle]_output: 3d810a14
/model.23/Add_2_output_0: 3d810a14
/model.20/cv2/conv/Conv_output_0: 3cc245a2
/model.23/one2one_cv2.1/one2one_cv2.1.1/conv/Conv_output_0: 3e35efb0
/model.23/one2one_cv3.1/one2one_cv3.1.0/one2one_cv3.1.0.1/conv/Conv_output_0: 3d2c8973
/model.23/Expand_output_0: 3f204a85
/model.23/Expand_1_output_0: 3f204a85
/model.21/Concat_output_0: 3c87b5ab
/model.23/one2one_cv2.1/one2one_cv2.1.1/act/Sigmoid_output_0: 3c010a14
/model.23/one2one_cv3.1/one2one_cv3.1.0/one2one_cv3.1.0.1/act/Sigmoid_output_0: 3c002829
/model.23/Unsqueeze_3_output_0: 3f204a85
/model.23/Unsqueeze_4_output_0: 3f204a85
/model.22/cv1/conv/Conv_output_0: 3d0167c6
/model.23/one2one_cv2.1/one2one_cv2.1.1/act/Mul_output_0: 3dc0e800
/model.23/one2one_cv3.1/one2one_cv3.1.0/one2one_cv3.1.0.1/act/Mul_output_0: 3cbff80c
/model.23/Concat_10_output_0: 3f204a85
/model.22/cv1/act/Sigmoid_output_0: 3c00af8d
/model.23/one2one_cv2.1/one2one_cv2.1.2/Conv_output_0: 3dc3ade6
/model.23/one2one_cv3.1/one2one_cv3.1.1/one2one_cv3.1.1.0/conv/Conv_output_0: 3d567518
/model.23/Reshape_7_output_0: 3f204a85
/model.22/cv1/act/Mul_output_0: 3c871ddb
/model.23/one2one_cv3.1/one2one_cv3.1.1/one2one_cv3.1.1.0/act/Sigmoid_output_0: 3c0109c5
/model.22/Split_output_0: 3c871ddb
/model.22/Split_output_1: 3c8f8ec5
/model.23/one2one_cv3.1/one2one_cv3.1.1/one2one_cv3.1.1.0/act/Mul_output_0: 3d679706
/model.22/m.0/cv1/cv1.0/conv/Conv_output_0: 3ca57981
/model.23/one2one_cv3.1/one2one_cv3.1.1/one2one_cv3.1.1.1/conv/Conv_output_0: 3d94a080
/model.22/m.0/cv1/cv1.0/act/Sigmoid_output_0: 3befaabd
/model.23/one2one_cv3.1/one2one_cv3.1.1/one2one_cv3.1.1.1/act/Sigmoid_output_0: 3c010a03
/model.22/m.0/cv1/cv1.0/act/Mul_output_0: 3c72e5ba
/model.23/one2one_cv3.1/one2one_cv3.1.1/one2one_cv3.1.1.1/act/Mul_output_0: 3d689e9a
/model.22/m.0/cv1/cv1.1/conv/Conv_output_0: 3c97d0ae
/model.23/one2one_cv3.1/one2one_cv3.1.2/Conv_output_0: 3e417a1c
/model.22/m.0/cv1/cv1.1/act/Sigmoid_output_0: 3bebcae2
/model.23/Concat_1_output_0: 3e30a339
/model.22/m.0/cv1/cv1.1/act/Mul_output_0: 3c8fe9bb
/model.23/Reshape_1_output_0: 3e30a339
/model.22/m.0/cv1/cv1.2/conv/Conv_output_0: 3d0e4ce3
/model.22/m.0/cv1/cv1.2/act/Sigmoid_output_0: 3bfabedb
/model.22/m.0/cv1/cv1.2/act/Mul_output_0: 3cbf0b59
/model.23/Range_2_output_0: 3e9d4449
(Unnamed Layer* 464) [Shuffle]_output: 3c010a14
/model.23/Range_3_output_0: 3e9d4449
(Unnamed Layer* 475) [Shuffle]_output: 3c010a14
/model.22/m.0/cv1/cv1.3/conv/Conv_output_0: 3d100c6b
(Unnamed Layer* 479) [Shuffle]_output: 3b810a14
/model.23/Add_3_output_0: 3e9f4871
(Unnamed Layer* 482) [Shuffle]_output: 3b810a14
/model.23/Add_4_output_0: 3e9f4871
/model.22/m.0/cv1/cv1.3/act/Sigmoid_output_0: 3bff2a5b
(Unnamed Layer* 487) [Constant]_output: 0
(Unnamed Layer* 488) [Shuffle]_output: 0
/model.23/ConstantOfShape_1_output_0: 0
/model.23/Reshape_10_output_0: 3e9f4871
/model.23/Reshape_11_output_0: 3e9f4871
/model.22/m.0/cv1/cv1.3/act/Mul_output_0: 3cb001be
(Unnamed Layer* 496) [Shuffle]_output: 3e010a14
/model.23/Add_5_output_0: 3e010a14
/model.22/m.0/cv1/cv1.4/conv/Conv_output_0: 3d31d60e
/model.23/Expand_2_output_0: 3e9f4871
/model.23/Expand_3_output_0: 3e9f4871
/model.22/m.0/cv1/cv1.4/act/Sigmoid_output_0: 3bffd106
/model.23/Unsqueeze_6_output_0: 3e9f4871
/model.23/Unsqueeze_7_output_0: 3e9f4871
/model.22/m.0/cv1/cv1.4/act/Mul_output_0: 3d103d0c
/model.23/Concat_15_output_0: 3e9f4871
/model.22/m.0/Add_output_0: 3d2b63f5
/model.23/Reshape_12_output_0: 3e9f4871
/model.22/Concat_output_0: 3cff9c01
/model.22/cv2/conv/Conv_output_0: 3d5006b8
/model.22/cv2/act/Sigmoid_output_0: 3c00d6ff
/model.22/cv2/act/Mul_output_0: 3cd2a95a
/model.23/one2one_cv2.2/one2one_cv2.2.0/conv/Conv_output_0: 3d6a594b
/model.23/one2one_cv3.2/one2one_cv3.2.0/one2one_cv3.2.0.0/conv/Conv_output_0: 3d29c678
/model.23/one2one_cv2.2/one2one_cv2.2.0/act/Sigmoid_output_0: 3c00fc3b
/model.23/one2one_cv3.2/one2one_cv3.2.0/one2one_cv3.2.0.0/act/Sigmoid_output_0: 3c006183
/model.23/one2one_cv2.2/one2one_cv2.2.0/act/Mul_output_0: 3d1101a5
/model.23/one2one_cv3.2/one2one_cv3.2.0/one2one_cv3.2.0.0/act/Mul_output_0: 3d0e6882
/model.23/one2one_cv2.2/one2one_cv2.2.1/conv/Conv_output_0: 3e29ea29
/model.23/one2one_cv3.2/one2one_cv3.2.0/one2one_cv3.2.0.1/conv/Conv_output_0: 3ccb2939
/model.23/one2one_cv2.2/one2one_cv2.2.1/act/Sigmoid_output_0: 3c010a14
/model.23/one2one_cv3.2/one2one_cv3.2.0/one2one_cv3.2.0.1/act/Sigmoid_output_0: 3bf72ec1
/model.23/one2one_cv2.2/one2one_cv2.2.1/act/Mul_output_0: 3dc2d428
/model.23/one2one_cv3.2/one2one_cv3.2.0/one2one_cv3.2.0.1/act/Mul_output_0: 3c994357
/model.23/one2one_cv2.2/one2one_cv2.2.2/Conv_output_0: 3d7a80e0
/model.23/one2one_cv3.2/one2one_cv3.2.1/one2one_cv3.2.1.0/conv/Conv_output_0: 3d0527d8
/model.23/one2one_cv3.2/one2one_cv3.2.1/one2one_cv3.2.1.0/act/Sigmoid_output_0: 3bfd6fdf
/model.23/one2one_cv3.2/one2one_cv3.2.1/one2one_cv3.2.1.0/act/Mul_output_0: 3ce707cd
/model.23/one2one_cv3.2/one2one_cv3.2.1/one2one_cv3.2.1.1/conv/Conv_output_0: 3ccdaf3f
/model.23/one2one_cv3.2/one2one_cv3.2.1/one2one_cv3.2.1.1/act/Sigmoid_output_0: 3bf746bb
/model.23/one2one_cv3.2/one2one_cv3.2.1/one2one_cv3.2.1.1/act/Mul_output_0: 3c99f3bc
/model.23/one2one_cv3.2/one2one_cv3.2.2/Conv_output_0: 3def64a8
/model.23/Concat_2_output_0: 3def64a8
/model.23/Reshape_2_output_0: 3def64a8
/model.23/Concat_6_output_0: 3e502da2
/model.23/Split_1_output_0: 3db16d14
/model.23/Split_1_output_1: 3e94c3b8
/model.23/Range_4_output_0: 3e193bf8
(Unnamed Layer* 592) [Shuffle]_output: 3c010a14
/model.23/Range_5_output_0: 3e193bf8
(Unnamed Layer* 603) [Shuffle]_output: 3c010a14
/model.23/Sigmoid_output_0: 3667bf84
(Unnamed Layer* 608) [Shuffle]_output: 3b810a14
/model.23/Add_6_output_0: 3e1d4449
(Unnamed Layer* 611) [Shuffle]_output: 3b810a14
/model.23/Add_7_output_0: 3e1d4449
(Unnamed Layer* 619) [Constant]_output: 0
(Unnamed Layer* 620) [Shuffle]_output: 0
/model.23/ConstantOfShape_2_output_0: 0
/model.23/Reshape_15_output_0: 3e1d4449
/model.23/Reshape_16_output_0: 3e1d4449
(Unnamed Layer* 629) [Shuffle]_output: 3e810a14
/model.23/Add_8_output_0: 3e810a14
/model.23/Concat_23_output_0: 3e810a14
/model.23/dfl/Reshape_output_0: 3db16d14
/model.23/Expand_4_output_0: 3e1d4449
/model.23/Expand_5_output_0: 3e1d4449
/model.23/Transpose_1_output_0: 3e810a14
/model.23/dfl/Transpose_output_0: 3db16d14
/model.23/Unsqueeze_9_output_0: 3e1d4449
/model.23/Unsqueeze_10_output_0: 3e1d4449
(Unnamed Layer* 673) [Softmax]_output: 3bc19324
/model.23/Concat_20_output_0: 3e1d4449
/model.23/dfl/conv/Conv_output_0: 3dd17905
/model.23/Reshape_17_output_0: 3e1d4449
/model.23/dfl/Reshape_1_output_0: 3dd17905
/model.23/Concat_22_output_0: 3f204a85
/model.23/Slice_output_0: 3dd17905
/model.23/Slice_1_output_0: 3d9378ca
/model.23/Transpose_output_0: 3f204a85
/model.23/Unsqueeze_12_output_0: 3f204a85
/model.23/Sub_output_0: 3f202015
/model.23/Add_10_output_0: 3f218274
/model.23/Concat_24_output_0: 3f218274
(Unnamed Layer* 744) [Shuffle]_output: 3e810a14
/model.23/Mul_5_output_0: 40b5ad82
/model.23/Concat_25_output_0: 40b5ad82
/model.23/Transpose_2_output_0: 40b5ad82
/model.23/Split_2_output_0: 40b5ad82
/model.23/Split_2_output_1: 3667bf84
/model.23/ReduceMax_output_0: 3667bf84
/model.23/TopK_output_0: 3667bf84
/model.23/GatherElements_output_0: 40a1e237
/model.23/GatherElements_1_output_0: 3667bf84
/model.23/Flatten_output_0: 3667bf84
/model.23/Flatten_1_output_0: 40a1e237
/model.23/TopK_1_output_0: 36a211d7
/model.23/Unsqueeze_15_output_0: 36a211d7
/model.23/Cast_9_output_0: 3cc18f1e
/model.23/Gather_11_output_0: 40a23c03
output0: 40a23c03
