TRT-8602-EntropyCalibration2
images: 3b66eddc
/model.0/conv/Conv_output_0: 3e7a378f
/model.0/act/Sigmoid_output_0: 3c010a14
/model.0/act/Mul_output_0: 3e0f6a64
/model.1/conv/Conv_output_0: 3f1e45bf
/model.1/act/Sigmoid_output_0: 3c010a14
/model.1/act/Mul_output_0: 3ea058d6
/model.2/cv1/conv/Conv_output_0: 3efab676
/model.2/cv1/act/Sigmoid_output_0: 3c010a14
/model.2/cv1/act/Mul_output_0: 3e0f3ec2
/model.2/Split_output_0: 3db39c42
/model.2/Split_output_1: 3da2d385
/model.2/m.0/cv1/conv/Conv_output_0: 3e7afef0
/model.2/m.0/cv1/act/Sigmoid_output_0: 3c010a14
/model.2/m.0/cv1/act/Mul_output_0: 3dc73d4e
/model.2/m.0/cv2/conv/Conv_output_0: 3df5cde4
/model.2/m.0/cv2/act/Sigmoid_output_0: 3c010a14
/model.2/m.0/cv2/act/Mul_output_0: 3dc7a848
/model.2/m.0/Add_output_0: 3de5bc76
/model.2/Concat_output_0: 3e0f3ec2
/model.2/cv2/conv/Conv_output_0: 3e308937
/model.2/cv2/act/Sigmoid_output_0: 3c002844
/model.2/cv2/act/Mul_output_0: 3d682be0
/model.3/conv/Conv_output_0: 3d4b4184
/model.3/act/Sigmoid_output_0: 3bff8090
/model.3/act/Mul_output_0: 3d24b233
/model.4/cv1/conv/Conv_output_0: 3d6e90e7
/model.4/cv1/act/Sigmoid_output_0: 3bffaed9
/model.4/cv1/act/Mul_output_0: 3cff768d
/model.4/Split_output_0: 3d00786d
/model.4/Split_output_1: 3cd1c01f
/model.4/m.0/cv1/conv/Conv_output_0: 3d3f93bc
/model.4/m.0/cv1/act/Sigmoid_output_0: 3bfe04f8
/model.4/m.0/cv1/act/Mul_output_0: 3cb152dc
/model.4/m.0/cv2/conv/Conv_output_0: 3d1df12e
/model.4/m.0/cv2/act/Sigmoid_output_0: 3bff436d
/model.4/m.0/cv2/act/Mul_output_0: 3cd2748e
/model.4/m.0/Add_output_0: 3d2e1968
/model.4/m.1/cv1/conv/Conv_output_0: 3d3b9f1b
/model.4/m.1/cv1/act/Sigmoid_output_0: 3bfa7605
/model.4/m.1/cv1/act/Mul_output_0: 3c312629
/model.4/m.1/cv2/conv/Conv_output_0: 3d8bb2ef
/model.4/m.1/cv2/act/Sigmoid_output_0: 3c00e953
/model.4/m.1/cv2/act/Mul_output_0: 3d25ae0a
/model.4/m.1/Add_output_0: 3d8f95fa
/model.4/Concat_output_0: 3d418b21
/model.4/cv2/conv/Conv_output_0: 3d794bb5
/model.4/cv2/act/Sigmoid_output_0: 3bfecd1a
/model.4/cv2/act/Mul_output_0: 3cb12653
/model.5/conv/Conv_output_0: 3d4e1a12
/model.5/act/Sigmoid_output_0: 3bff628c
/model.5/act/Mul_output_0: 3cd1cc8d
/model.6/cv1/conv/Conv_output_0: 3db84cde
/model.6/cv1/act/Sigmoid_output_0: 3c00e342
/model.6/cv1/act/Mul_output_0: 3d10aea5
/model.6/Split_output_0: 3d10aea5
/model.6/Split_output_1: 3cbf9011
/model.6/m.0/cv1/conv/Conv_output_0: 3d6c44bd
/model.6/m.0/cv1/act/Sigmoid_output_0: 3c00be25
/model.6/m.0/cv1/act/Mul_output_0: 3cc0cd4b
/model.6/m.0/cv2/conv/Conv_output_0: 3d56a633
/model.6/m.0/cv2/act/Sigmoid_output_0: 3bfe0a76
/model.6/m.0/cv2/act/Mul_output_0: 3cc0b148
/model.6/m.0/Add_output_0: 3d241787
/model.6/m.1/cv1/conv/Conv_output_0: 3d69ef6e
/model.6/m.1/cv1/act/Sigmoid_output_0: 3bfd0608
/model.6/m.1/cv1/act/Mul_output_0: 3c734db8
/model.6/m.1/cv2/conv/Conv_output_0: 3db12d2b
/model.6/m.1/cv2/act/Sigmoid_output_0: 3c00d4fb
/model.6/m.1/cv2/act/Mul_output_0: 3d256bab
/model.6/m.1/Add_output_0: 3d61c5e6
/model.6/Concat_output_0: 3d24a0b0
/model.6/cv2/conv/Conv_output_0: 3d4f3ab7
/model.6/cv2/act/Sigmoid_output_0: 3bfc6806
/model.6/cv2/act/Mul_output_0: 3c90967e
/model.7/conv/Conv_output_0: 3d60d7fc
/model.7/act/Sigmoid_output_0: 3c0098cd
/model.7/act/Mul_output_0: 3c993202
/model.8/cv1/conv/Conv_output_0: 3d7f13f9
/model.8/cv1/act/Sigmoid_output_0: 3c00f4a1
/model.8/cv1/act/Mul_output_0: 3d1076bb
/model.8/Split_output_0: 3d257bf5
/model.8/Split_output_1: 3c87cd74
/model.8/m.0/cv1/conv/Conv_output_0: 3d65aa43
/model.8/m.0/cv1/act/Sigmoid_output_0: 3bfdba8d
/model.8/m.0/cv1/act/Mul_output_0: 3cb1ed39
/model.8/m.0/cv2/conv/Conv_output_0: 3d899d7d
/model.8/m.0/cv2/act/Sigmoid_output_0: 3c00dff2
/model.8/m.0/cv2/act/Mul_output_0: 3d11340b
/model.8/m.0/Add_output_0: 3d64fc0b
/model.8/Concat_output_0: 3d0fbc21
/model.8/cv2/conv/Conv_output_0: 3d7c7e8b
/model.8/cv2/act/Sigmoid_output_0: 3c00cbc4
/model.8/cv2/act/Mul_output_0: 3cc17fd8
/model.9/cv1/conv/Conv_output_0: 3d5e91b5
/model.9/cv1/act/Sigmoid_output_0: 3c008e9e
/model.9/cv1/act/Mul_output_0: 3d6472a2
/model.9/m/MaxPool_output_0: 3d6472a2
/model.9/m_1/MaxPool_output_0: 3d6472a2
/model.9/m_2/MaxPool_output_0: 3d6472a2
/model.9/Concat_output_0: 3d6921c8
/model.9/cv2/conv/Conv_output_0: 3d5abdab
/model.9/cv2/act/Sigmoid_output_0: 3bf54a3f
/model.9/cv2/act/Mul_output_0: 3c247d48
/model.10/Resize_output_0: 3c247d48
/model.11/Concat_output_0: 3c671986
/model.12/cv1/conv/Conv_output_0: 3d4f006c
/model.12/cv1/act/Sigmoid_output_0: 3bfe53ed
/model.12/cv1/act/Mul_output_0: 3cb1209c
/model.12/Split_output_0: 3cb20562
/model.12/Split_output_1: 3cb1209c
/model.12/m.0/cv1/conv/Conv_output_0: 3d50caaf
/model.12/m.0/cv1/act/Sigmoid_output_0: 3bf42857
/model.12/m.0/cv1/act/Mul_output_0: 3b102c8e
/model.12/m.0/cv2/conv/Conv_output_0: 3d056b06
/model.12/m.0/cv2/act/Sigmoid_output_0: 3bfdb55e
/model.12/m.0/cv2/act/Mul_output_0: 3c99e444
/model.12/Concat_output_0: 3cb1209c
/model.12/cv2/conv/Conv_output_0: 3d266da5
/model.12/cv2/act/Sigmoid_output_0: 3bfdbd9d
/model.12/cv2/act/Mul_output_0: 3c87bb6a
/model.13/Resize_output_0: 3c87bb6a
/model.14/Concat_output_0: 3c999c92
/model.15/cv1/conv/Conv_output_0: 3d26b207
/model.15/cv1/act/Sigmoid_output_0: 3bfa2887
/model.15/cv1/act/Mul_output_0: 3cb20483
/model.15/Split_output_0: 3c90921a
/model.15/Split_output_1: 3ca49ab9
/model.15/m.0/cv1/conv/Conv_output_0: 3d04c545
/model.15/m.0/cv1/act/Sigmoid_output_0: 3bfc8130
/model.15/m.0/cv1/act/Mul_output_0: 3c7fd2d4
/model.15/m.0/cv2/conv/Conv_output_0: 3d342058
/model.15/m.0/cv2/act/Sigmoid_output_0: 3c00ed2f
/model.15/m.0/cv2/act/Mul_output_0: 3d25e632
/model.15/Concat_output_0: 3d011e6f
/model.15/cv2/conv/Conv_output_0: 3d510a34
/model.15/cv2/act/Sigmoid_output_0: 3c00a866
/model.15/cv2/act/Mul_output_0: 3cb22050
/model.16/conv/Conv_output_0: 3d2e8b3c
/model.22/cv2.0/cv2.0.0/conv/Conv_output_0: 3da558a1
/model.22/cv3.0/cv3.0.0/conv/Conv_output_0: 3d47f45b
/model.16/act/Sigmoid_output_0: 3c00820a
/model.22/cv2.0/cv2.0.0/act/Sigmoid_output_0: 3c010995
/model.22/cv3.0/cv3.0.0/act/Sigmoid_output_0: 3c005e93
/model.16/act/Mul_output_0: 3cb203fa
/model.22/cv2.0/cv2.0.0/act/Mul_output_0: 3cd3f0e5
/model.22/cv3.0/cv3.0.0/act/Mul_output_0: 3cd14d68
/model.17/Concat_output_0: 3cb203fa
/model.22/cv2.0/cv2.0.1/conv/Conv_output_0: 3e20d333
/model.22/cv3.0/cv3.0.1/conv/Conv_output_0: 3d7249ab
/model.18/cv1/conv/Conv_output_0: 3d438dec
/model.22/cv2.0/cv2.0.1/act/Sigmoid_output_0: 3c010a14
/model.22/cv3.0/cv3.0.1/act/Sigmoid_output_0: 3c00f73f
/model.18/cv1/act/Sigmoid_output_0: 3c0084a7
/model.22/cv2.0/cv2.0.1/act/Mul_output_0: 3e1169ad
/model.22/cv3.0/cv3.0.1/act/Mul_output_0: 3d1068a8
/model.18/cv1/act/Mul_output_0: 3cc0a7cd
/model.22/cv2.0/cv2.0.2/Conv_output_0: 3e651617
/model.22/cv3.0/cv3.0.2/Conv_output_0: 3e7f6968
/model.18/Split_output_0: 3ca5b8bf
/model.18/Split_output_1: 3cc0a7cd
/model.22/Concat_output_0: 3e651617
/model.18/m.0/cv1/conv/Conv_output_0: 3d17a5ab
/model.18/m.0/cv1/act/Sigmoid_output_0: 3bf20049
/model.18/m.0/cv1/act/Mul_output_0: 3c67a25b
/model.18/m.0/cv2/conv/Conv_output_0: 3d4e7886
/model.22/Range_output_0: 3f1f4871
(Unnamed Layer* 245) [Shuffle]_output: 3c010a14
/model.22/Range_1_output_0: 3f1f4871
(Unnamed Layer* 256) [Shuffle]_output: 3c010a14
/model.18/m.0/cv2/act/Sigmoid_output_0: 3c0053e6
/model.22/Reshape_output_0: 3e651617
(Unnamed Layer* 261) [Shuffle]_output: 3b810a14
/model.22/Add_output_0: 3f204a85
(Unnamed Layer* 264) [Shuffle]_output: 3b810a14
/model.22/Add_1_output_0: 3f204a85
/model.18/m.0/cv2/act/Mul_output_0: 3d0f591a
(Unnamed Layer* 269) [Constant]_output: 0
(Unnamed Layer* 270) [Shuffle]_output: 0
/model.22/ConstantOfShape_output_0: 0
/model.22/Reshape_5_output_0: 3f204a85
/model.22/Reshape_6_output_0: 3f204a85
/model.18/Concat_output_0: 3cd24329
(Unnamed Layer* 278) [Shuffle]_output: 3d810a14
/model.22/Add_2_output_0: 3d810a14
/model.18/cv2/conv/Conv_output_0: 3d8ea97b
/model.22/Expand_output_0: 3f204a85
/model.22/Expand_1_output_0: 3f204a85
/model.18/cv2/act/Sigmoid_output_0: 3c00070e
/model.22/Unsqueeze_3_output_0: 3f204a85
/model.22/Unsqueeze_4_output_0: 3f204a85
/model.18/cv2/act/Mul_output_0: 3c99740c
/model.22/Concat_10_output_0: 3f204a85
/model.19/conv/Conv_output_0: 3d27594a
/model.22/cv2.1/cv2.1.0/conv/Conv_output_0: 3dbecc02
/model.22/cv3.1/cv3.1.0/conv/Conv_output_0: 3d0fca7f
/model.22/Reshape_7_output_0: 3f204a85
/model.19/act/Sigmoid_output_0: 3bff8e9d
/model.22/cv2.1/cv2.1.0/act/Sigmoid_output_0: 3c0109d7
/model.22/cv3.1/cv3.1.0/act/Sigmoid_output_0: 3bfefcab
/model.19/act/Mul_output_0: 3c8ff8f4
/model.22/cv2.1/cv2.1.0/act/Mul_output_0: 3d42c102
/model.22/cv3.1/cv3.1.0/act/Mul_output_0: 3cc08f8a
/model.20/Concat_output_0: 3c5195b2
/model.22/cv2.1/cv2.1.1/conv/Conv_output_0: 3e2d5086
/model.22/cv3.1/cv3.1.1/conv/Conv_output_0: 3d227f6e
/model.21/cv1/conv/Conv_output_0: 3d31f68d
/model.22/cv2.1/cv2.1.1/act/Sigmoid_output_0: 3c010a14
/model.22/cv3.1/cv3.1.1/act/Sigmoid_output_0: 3c00bdc0
/model.21/cv1/act/Sigmoid_output_0: 3bfd2a17
/model.22/cv2.1/cv2.1.1/act/Mul_output_0: 3e1545ce
/model.22/cv3.1/cv3.1.1/act/Mul_output_0: 3cd2cad8
/model.21/cv1/act/Mul_output_0: 3c9a6d37
/model.22/cv2.1/cv2.1.2/Conv_output_0: 3e3b04e2
/model.22/cv3.1/cv3.1.2/Conv_output_0: 3e20afd0
/model.21/Split_output_0: 3c80da06
/model.21/Split_output_1: 3c883f89
/model.22/Concat_1_output_0: 3e3b04e2
/model.21/m.0/cv1/conv/Conv_output_0: 3d76df95
/model.22/Reshape_1_output_0: 3e3b04e2
/model.21/m.0/cv1/act/Sigmoid_output_0: 3bfda013
/model.21/m.0/cv1/act/Mul_output_0: 3c5b94e9
/model.21/m.0/cv2/conv/Conv_output_0: 3d823c90
/model.22/Range_2_output_0: 3e9d4449
(Unnamed Layer* 373) [Shuffle]_output: 3c010a14
/model.22/Range_3_output_0: 3e9d4449
(Unnamed Layer* 384) [Shuffle]_output: 3c010a14
/model.21/m.0/cv2/act/Sigmoid_output_0: 3c00bbfc
(Unnamed Layer* 388) [Shuffle]_output: 3b810a14
/model.22/Add_3_output_0: 3e9f4871
(Unnamed Layer* 391) [Shuffle]_output: 3b810a14
/model.22/Add_4_output_0: 3e9f4871
/model.21/m.0/cv2/act/Mul_output_0: 3d115141
(Unnamed Layer* 396) [Constant]_output: 0
(Unnamed Layer* 397) [Shuffle]_output: 0
/model.22/ConstantOfShape_1_output_0: 0
/model.22/Reshape_10_output_0: 3e9f4871
/model.22/Reshape_11_output_0: 3e9f4871
/model.21/Concat_output_0: 3cd322f4
(Unnamed Layer* 405) [Shuffle]_output: 3e010a14
/model.22/Add_5_output_0: 3e010a14
/model.21/cv2/conv/Conv_output_0: 3dd2e437
/model.22/Expand_2_output_0: 3e9f4871
/model.22/Expand_3_output_0: 3e9f4871
/model.21/cv2/act/Sigmoid_output_0: 3c008cac
/model.22/Unsqueeze_6_output_0: 3e9f4871
/model.22/Unsqueeze_7_output_0: 3e9f4871
/model.21/cv2/act/Mul_output_0: 3ca416c5
/model.22/Concat_15_output_0: 3e9f4871
/model.22/cv2.2/cv2.2.0/conv/Conv_output_0: 3daf8a3f
/model.22/cv3.2/cv3.2.0/conv/Conv_output_0: 3d126cc3
/model.22/Reshape_12_output_0: 3e9f4871
/model.22/cv2.2/cv2.2.0/act/Sigmoid_output_0: 3c0109cf
/model.22/cv3.2/cv3.2.0/act/Sigmoid_output_0: 3bff2612
/model.22/cv2.2/cv2.2.0/act/Mul_output_0: 3d66b3dd
/model.22/cv3.2/cv3.2.0/act/Mul_output_0: 3cd18ab1
/model.22/cv2.2/cv2.2.1/conv/Conv_output_0: 3e1b4a8f
/model.22/cv3.2/cv3.2.1/conv/Conv_output_0: 3cf8b3ba
/model.22/cv2.2/cv2.2.1/act/Sigmoid_output_0: 3c010a14
/model.22/cv3.2/cv3.2.1/act/Sigmoid_output_0: 3bfe7b64
/model.22/cv2.2/cv2.2.1/act/Mul_output_0: 3dbd52fc
/model.22/cv3.2/cv3.2.1/act/Mul_output_0: 3ca49441
/model.22/cv2.2/cv2.2.2/Conv_output_0: 3e273f5c
/model.22/cv3.2/cv3.2.2/Conv_output_0: 3de78b14
/model.22/Concat_2_output_0: 3e26e191
/model.22/Reshape_2_output_0: 3e26e191
/model.22/Concat_6_output_0: 3e5eb9df
/model.22/Split_1_output_0: 3e5eb9df
/model.22/Split_1_output_1: 3e834629
/model.22/Range_4_output_0: 3e193bf8
(Unnamed Layer* 490) [Shuffle]_output: 3c010a14
/model.22/Range_5_output_0: 3e193bf8
(Unnamed Layer* 501) [Shuffle]_output: 3c010a14
/model.22/Sigmoid_output_0: 37131b39
(Unnamed Layer* 506) [Shuffle]_output: 3b810a14
/model.22/Add_6_output_0: 3e1d4449
(Unnamed Layer* 509) [Shuffle]_output: 3b810a14
/model.22/Add_7_output_0: 3e1d4449
(Unnamed Layer* 517) [Constant]_output: 0
(Unnamed Layer* 518) [Shuffle]_output: 0
/model.22/ConstantOfShape_2_output_0: 0
/model.22/Reshape_15_output_0: 3e1d4449
/model.22/Reshape_16_output_0: 3e1d4449
(Unnamed Layer* 527) [Shuffle]_output: 3e810a14
/model.22/Add_8_output_0: 3e810a14
/model.22/Concat_23_output_0: 3e810a14
/model.22/dfl/Reshape_output_0: 3e5eb9df
/model.22/Expand_4_output_0: 3e1d4449
/model.22/Expand_5_output_0: 3e1d4449
/model.22/Transpose_1_output_0: 3e810a14
/model.22/dfl/Transpose_output_0: 3e5eb9df
/model.22/Unsqueeze_9_output_0: 3e1d4449
/model.22/Unsqueeze_10_output_0: 3e1d4449
(Unnamed Layer* 571) [Softmax]_output: 3bf1f3e8
/model.22/Concat_20_output_0: 3e1d4449
/model.22/dfl/conv/Conv_output_0: 3dd86c63
/model.22/Reshape_17_output_0: 3e1d4449
/model.22/dfl/Reshape_1_output_0: 3dd86c63
/model.22/Concat_22_output_0: 3f204a85
/model.22/Slice_output_0: 3dded771
/model.22/Slice_1_output_0: 3d83f986
/model.22/Transpose_output_0: 3f204a85
/model.22/Unsqueeze_12_output_0: 3f204a85
/model.22/Sub_output_0: 3f1ffcb5
/model.22/Add_10_output_0: 3f21a8bf
/model.22/Add_11_output_0: 3fa08708
/model.22/Sub_1_output_0: 3e3015ff
(Unnamed Layer* 641) [Shuffle]_output: 3c810a14
/model.22/Div_1_output_0: 3f208708
/model.22/Concat_24_output_0: 3f208708
(Unnamed Layer* 647) [Shuffle]_output: 3e810a14
/model.22/Mul_5_output_0: 40a08708
output0: 40a08708
